/*
 * Copyright (c) 2025 EdgeImpulse Inc.
 *
 * Generated by Edge Impulse and licensed under the applicable Edge Impulse
 * Terms of Service. Community and Professional Terms of Service
 * (https://edgeimpulse.com/legal/terms-of-service) or Enterprise Terms of
 * Service (https://edgeimpulse.com/legal/enterprise-terms-of-service),
 * according to your product plan subscription (the “License”).
 *
 * This software, documentation and other associated files (collectively referred
 * to as the “Software”) is a single SDK variation generated by the Edge Impulse
 * platform and requires an active paid Edge Impulse subscription to use this
 * Software for any purpose.
 *
 * You may NOT use this Software unless you have an active Edge Impulse subscription
 * that meets the eligibility requirements for the applicable License, subject to
 * your full and continued compliance with the terms and conditions of the License,
 * including without limitation any usage restrictions under the applicable License.
 *
 * If you do not have an active Edge Impulse product plan subscription, or if use
 * of this Software exceeds the usage limitations of your Edge Impulse product plan
 * subscription, you are not permitted to use this Software and must immediately
 * delete and erase all copies of this Software within your control or possession.
 * Edge Impulse reserves all rights and remedies available to enforce its rights.
 *
 * Unless required by applicable law or agreed to in writing, the Software is
 * distributed on an "AS IS" BASIS, WITHOUT WARRANTIES OR CONDITIONS OF ANY KIND,
 * either express or implied. See the License for the specific language governing
 * permissions, disclaimers and limitations under the License.
 */

#ifndef _EI_CLASSIFIER_TFLITE_LEARN_831114_6_H_
#define _EI_CLASSIFIER_TFLITE_LEARN_831114_6_H_

#define EI_CLASSIFIER_TFLITE_LEARN_831114_6_ARENA_SIZE     9452
const size_t tflite_learn_831114_6_arena_size = 9452;

#if defined __GNUC__
#define ALIGN(X) __attribute__((aligned(X)))
#elif defined _MSC_VER
#define ALIGN(X) __declspec(align(X))
#elif defined __TASKING__
#define ALIGN(X) __align(X)
#else
#define ALIGN(X)
#endif

#if defined(EI_MODEL_SECTION) && (defined(__GNUC__) || defined(__clang__))
#define STRINGIZE(x) #x
#define STRINGIZE_VALUE_OF(x) STRINGIZE(x)
#define MODEL_SECTION(X) __attribute__((section(STRINGIZE_VALUE_OF(X))))
#else
#define MODEL_SECTION(X)
#endif


MODEL_SECTION(EI_MODEL_SECTION) ALIGN(16) const unsigned char tflite_learn_831114_6[] = {
  0x1c, 0x00, 0x00, 0x00, 0x54, 0x46, 0x4c, 0x33, 0x14, 0x00, 0x20, 0x00,
  0x1c, 0x00, 0x18, 0x00, 0x14, 0x00, 0x10, 0x00, 0x0c, 0x00, 0x00, 0x00,
  0x08, 0x00, 0x04, 0x00, 0x14, 0x00, 0x00, 0x00, 0x1c, 0x00, 0x00, 0x00,
  0x8c, 0x00, 0x00, 0x00, 0xe4, 0x00, 0x00, 0x00, 0xb4, 0x09, 0x00, 0x00,
  0xc4, 0x09, 0x00, 0x00, 0xd0, 0x19, 0x00, 0x00, 0x03, 0x00, 0x00, 0x00,
  0x01, 0x00, 0x00, 0x00, 0x10, 0x00, 0x00, 0x00, 0x00, 0x00, 0x0a, 0x00,
  0x10, 0x00, 0x0c, 0x00, 0x08, 0x00, 0x04, 0x00, 0x0a, 0x00, 0x00, 0x00,
  0x0c, 0x00, 0x00, 0x00, 0x1c, 0x00, 0x00, 0x00, 0x3c, 0x00, 0x00, 0x00,
  0x0f, 0x00, 0x00, 0x00, 0x73, 0x65, 0x72, 0x76, 0x69, 0x6e, 0x67, 0x5f,
  0x64, 0x65, 0x66, 0x61, 0x75, 0x6c, 0x74, 0x00, 0x01, 0x00, 0x00, 0x00,
  0x04, 0x00, 0x00, 0x00, 0x9c, 0xff, 0xff, 0xff, 0x16, 0x00, 0x00, 0x00,
  0x04, 0x00, 0x00, 0x00, 0x08, 0x00, 0x00, 0x00, 0x6f, 0x75, 0x74, 0x70,
  0x75, 0x74, 0x5f, 0x30, 0x00, 0x00, 0x00, 0x00, 0x01, 0x00, 0x00, 0x00,
  0x04, 0x00, 0x00, 0x00, 0x26, 0xf6, 0xff, 0xff, 0x04, 0x00, 0x00, 0x00,
  0x01, 0x00, 0x00, 0x00, 0x78, 0x00, 0x00, 0x00, 0x02, 0x00, 0x00, 0x00,
  0x34, 0x00, 0x00, 0x00, 0x04, 0x00, 0x00, 0x00, 0xdc, 0xff, 0xff, 0xff,
  0x19, 0x00, 0x00, 0x00, 0x04, 0x00, 0x00, 0x00, 0x13, 0x00, 0x00, 0x00,
  0x43, 0x4f, 0x4e, 0x56, 0x45, 0x52, 0x53, 0x49, 0x4f, 0x4e, 0x5f, 0x4d,
  0x45, 0x54, 0x41, 0x44, 0x41, 0x54, 0x41, 0x00, 0x08, 0x00, 0x0c, 0x00,
  0x08, 0x00, 0x04, 0x00, 0x08, 0x00, 0x00, 0x00, 0x18, 0x00, 0x00, 0x00,
  0x04, 0x00, 0x00, 0x00, 0x13, 0x00, 0x00, 0x00, 0x6d, 0x69, 0x6e, 0x5f,
  0x72, 0x75, 0x6e, 0x74, 0x69, 0x6d, 0x65, 0x5f, 0x76, 0x65, 0x72, 0x73,
  0x69, 0x6f, 0x6e, 0x00, 0x1a, 0x00, 0x00, 0x00, 0xcc, 0x08, 0x00, 0x00,
  0xc4, 0x08, 0x00, 0x00, 0xa4, 0x08, 0x00, 0x00, 0x84, 0x08, 0x00, 0x00,
  0x64, 0x08, 0x00, 0x00, 0x44, 0x08, 0x00, 0x00, 0x2c, 0x08, 0x00, 0x00,
  0x14, 0x08, 0x00, 0x00, 0xe4, 0x04, 0x00, 0x00, 0x94, 0x04, 0x00, 0x00,
  0x04, 0x03, 0x00, 0x00, 0xd4, 0x02, 0x00, 0x00, 0xe4, 0x00, 0x00, 0x00,
  0xdc, 0x00, 0x00, 0x00, 0xd4, 0x00, 0x00, 0x00, 0xcc, 0x00, 0x00, 0x00,
  0xc4, 0x00, 0x00, 0x00, 0xbc, 0x00, 0x00, 0x00, 0xb4, 0x00, 0x00, 0x00,
  0xac, 0x00, 0x00, 0x00, 0xa4, 0x00, 0x00, 0x00, 0x9c, 0x00, 0x00, 0x00,
  0x94, 0x00, 0x00, 0x00, 0x8c, 0x00, 0x00, 0x00, 0x6c, 0x00, 0x00, 0x00,
  0x04, 0x00, 0x00, 0x00, 0xfe, 0xf6, 0xff, 0xff, 0x04, 0x00, 0x00, 0x00,
  0x58, 0x00, 0x00, 0x00, 0x0c, 0x00, 0x00, 0x00, 0x08, 0x00, 0x0e, 0x00,
  0x08, 0x00, 0x04, 0x00, 0x08, 0x00, 0x00, 0x00, 0x10, 0x00, 0x00, 0x00,
  0x28, 0x00, 0x00, 0x00, 0x00, 0x00, 0x06, 0x00, 0x08, 0x00, 0x04, 0x00,
  0x06, 0x00, 0x00, 0x00, 0x04, 0x00, 0x00, 0x00, 0x01, 0x00, 0x00, 0x00,
  0xeb, 0x03, 0x00, 0x00, 0x00, 0x00, 0x0a, 0x00, 0x10, 0x00, 0x0c, 0x00,
  0x08, 0x00, 0x04, 0x00, 0x0a, 0x00, 0x00, 0x00, 0x03, 0x00, 0x00, 0x00,
  0x02, 0x00, 0x00, 0x00, 0x04, 0x00, 0x00, 0x00, 0x06, 0x00, 0x00, 0x00,
  0x32, 0x2e, 0x31, 0x31, 0x2e, 0x31, 0x00, 0x00, 0x62, 0xf7, 0xff, 0xff,
  0x04, 0x00, 0x00, 0x00, 0x10, 0x00, 0x00, 0x00, 0x31, 0x2e, 0x31, 0x34,
  0x2e, 0x30, 0x00, 0x00, 0x00, 0x00, 0x00, 0x00, 0x00, 0x00, 0x00, 0x00,
  0xb0, 0xe8, 0xff, 0xff, 0xb4, 0xe8, 0xff, 0xff, 0xb8, 0xe8, 0xff, 0xff,
  0xbc, 0xe8, 0xff, 0xff, 0xc0, 0xe8, 0xff, 0xff, 0xc4, 0xe8, 0xff, 0xff,
  0xc8, 0xe8, 0xff, 0xff, 0xcc, 0xe8, 0xff, 0xff, 0xd0, 0xe8, 0xff, 0xff,
  0xd4, 0xe8, 0xff, 0xff, 0xd8, 0xe8, 0xff, 0xff, 0xaa, 0xf7, 0xff, 0xff,
  0x04, 0x00, 0x00, 0x00, 0xe0, 0x01, 0x00, 0x00, 0x49, 0x6d, 0x39, 0xec,
  0x9a, 0xc2, 0x19, 0xc0, 0xba, 0xd1, 0xfa, 0xc5, 0x4a, 0xbf, 0xb9, 0x2f,
  0x03, 0x1e, 0x34, 0x00, 0x54, 0x2b, 0x42, 0x26, 0x03, 0xce, 0xc4, 0x90,
  0xf2, 0xa3, 0x81, 0x22, 0x22, 0xd9, 0x25, 0x05, 0x2e, 0x07, 0x60, 0x6a,
  0x70, 0x68, 0x00, 0x19, 0xc2, 0xc0, 0x1c, 0x08, 0xb8, 0xbc, 0x1f, 0x46,
  0xb8, 0x55, 0x40, 0x55, 0x6e, 0x4b, 0x36, 0x67, 0xa9, 0xb8, 0xde, 0x37,
  0x81, 0x4b, 0xb9, 0x43, 0xe0, 0xe5, 0xbe, 0xc3, 0x66, 0xaf, 0x70, 0x1d,
  0x8a, 0xc2, 0x76, 0x75, 0x55, 0xe1, 0x2d, 0x2b, 0x07, 0x8c, 0x9c, 0xcd,
  0xc0, 0x11, 0x02, 0x8b, 0x00, 0x2d, 0x12, 0x2e, 0xbd, 0x9b, 0xfc, 0xc0,
  0x66, 0xfa, 0xb1, 0x22, 0xf7, 0x52, 0x3c, 0x41, 0xdf, 0xe7, 0xc3, 0xe0,
  0x39, 0x8e, 0xa8, 0x5f, 0x01, 0xb1, 0xca, 0xdb, 0x6a, 0x7f, 0xf8, 0xe3,
  0x94, 0x9b, 0x12, 0x09, 0xb5, 0x04, 0x05, 0xb7, 0x2f, 0xbf, 0xdb, 0x38,
  0x46, 0x02, 0x62, 0x61, 0x7f, 0x2f, 0x23, 0xea, 0xfb, 0xc5, 0xba, 0x99,
  0xce, 0xa5, 0xc2, 0x11, 0xcb, 0x40, 0x62, 0xe1, 0x3d, 0xf3, 0x24, 0x28,
  0x41, 0x35, 0x42, 0xbe, 0xd0, 0xde, 0xf7, 0xb4, 0x2c, 0xad, 0x43, 0xb3,
  0xf7, 0x15, 0x56, 0x3c, 0xd7, 0xfa, 0x7a, 0x78, 0x81, 0xcf, 0xf3, 0xc9,
  0x54, 0xed, 0x5d, 0x1b, 0x37, 0xc1, 0x05, 0xb9, 0xda, 0x13, 0x16, 0xed,
  0x34, 0xfe, 0xfe, 0xe5, 0xff, 0x0d, 0x2a, 0x47, 0x20, 0x5f, 0x5d, 0xd7,
  0x5c, 0x34, 0x42, 0x34, 0x33, 0x1d, 0x30, 0x16, 0xe5, 0xd4, 0x8f, 0x29,
  0x8a, 0xb8, 0xd7, 0xd7, 0x3d, 0x26, 0x58, 0xf3, 0x50, 0x37, 0xcd, 0xf3,
  0xe2, 0xc3, 0x49, 0xce, 0x31, 0x37, 0xd7, 0xfb, 0xf5, 0xc6, 0xc8, 0x6c,
  0x02, 0x32, 0x23, 0x49, 0x0d, 0x1c, 0xf4, 0x2e, 0x18, 0x3b, 0x02, 0x42,
  0xd2, 0xc3, 0xbb, 0x81, 0xb0, 0x98, 0xa1, 0x1a, 0xe9, 0xfc, 0x28, 0x4f,
  0x48, 0x05, 0xec, 0x29, 0xd5, 0xe1, 0x30, 0xc1, 0xcd, 0x2f, 0xb3, 0xf2,
  0x05, 0xce, 0x1f, 0x04, 0xf4, 0x2b, 0x52, 0x0a, 0x34, 0x0f, 0x0d, 0x27,
  0xf0, 0x35, 0xdd, 0xf0, 0xdf, 0xe3, 0xeb, 0xa7, 0xd2, 0x1b, 0xd8, 0x53,
  0x33, 0x0d, 0xc9, 0xfb, 0xd8, 0x31, 0xbe, 0x51, 0x09, 0x33, 0xb9, 0x0c,
  0xae, 0x0e, 0xea, 0x79, 0xee, 0xeb, 0x59, 0x9a, 0xea, 0x81, 0x28, 0x37,
  0x8c, 0x56, 0x8c, 0x65, 0x04, 0x0d, 0x52, 0x02, 0xff, 0xdd, 0x54, 0xbb,
  0x8b, 0x83, 0x42, 0x3d, 0x29, 0xcf, 0xa1, 0xcd, 0x8b, 0xb2, 0x84, 0xad,
  0xfd, 0x3d, 0xb5, 0xc7, 0xfd, 0xef, 0x55, 0x6c, 0x1e, 0x62, 0xf7, 0x02,
  0xbf, 0xeb, 0xb9, 0x90, 0x85, 0x82, 0xb3, 0xf3, 0xa9, 0xe0, 0xdf, 0xd5,
  0xb4, 0x4b, 0xf0, 0xd6, 0xc7, 0x1b, 0x0a, 0x06, 0xe5, 0xdd, 0x49, 0xfb,
  0x1f, 0xaf, 0xe2, 0x9a, 0x12, 0xa1, 0xbc, 0x25, 0x81, 0x48, 0xb2, 0xeb,
  0xd0, 0xa9, 0x22, 0xd8, 0xb0, 0x61, 0x2a, 0x26, 0x01, 0x0d, 0xc6, 0x3b,
  0x83, 0x1b, 0x64, 0xc5, 0xa5, 0xa8, 0x3c, 0x4d, 0xf8, 0xca, 0x0c, 0x2c,
  0x53, 0x34, 0x04, 0x52, 0x09, 0xff, 0x57, 0xc8, 0x1b, 0xa0, 0xf0, 0x09,
  0xd6, 0x35, 0xa9, 0xd6, 0xa7, 0xe6, 0x89, 0x1b, 0x4e, 0x07, 0x24, 0x56,
  0x5b, 0x5b, 0x08, 0xf0, 0x1c, 0x48, 0xf6, 0xc9, 0x16, 0xc4, 0xf8, 0xbe,
  0x9f, 0xde, 0xb8, 0x0b, 0xdb, 0xf6, 0x40, 0x49, 0x10, 0x1d, 0x46, 0xd2,
  0x0e, 0xe9, 0xbe, 0xc9, 0xa8, 0xb2, 0xc1, 0x81, 0x96, 0xf9, 0xff, 0xff,
  0x04, 0x00, 0x00, 0x00, 0x20, 0x00, 0x00, 0x00, 0x6b, 0xef, 0xff, 0xff,
  0x83, 0xbe, 0xff, 0xff, 0x0c, 0x03, 0x00, 0x00, 0x51, 0xee, 0xff, 0xff,
  0xc0, 0x09, 0x00, 0x00, 0x2a, 0x9b, 0xff, 0xff, 0x96, 0x9b, 0xff, 0xff,
  0xfb, 0x11, 0x00, 0x00, 0xc2, 0xf9, 0xff, 0xff, 0x04, 0x00, 0x00, 0x00,
  0x80, 0x01, 0x00, 0x00, 0x30, 0x27, 0x6e, 0x3c, 0xbc, 0x02, 0xe8, 0x23,
  0xf6, 0x06, 0x3d, 0xed, 0xb2, 0x19, 0x53, 0x81, 0x31, 0x3a, 0x29, 0x0a,
  0x9c, 0xcb, 0x31, 0xf4, 0xbc, 0x48, 0xec, 0x4c, 0x0c, 0x9e, 0xeb, 0x49,
  0xa5, 0xf3, 0xac, 0x0d, 0x72, 0x5a, 0x3d, 0x7f, 0x33, 0x0b, 0xef, 0x9e,
  0xed, 0xb4, 0x02, 0x24, 0xc7, 0x13, 0xa2, 0x0e, 0x26, 0xda, 0xfa, 0x53,
  0x3e, 0xf9, 0x14, 0x43, 0x54, 0x95, 0xf8, 0x7f, 0x9c, 0x26, 0xfe, 0xc5,
  0x14, 0x0e, 0x58, 0x14, 0x23, 0xc3, 0x1b, 0xeb, 0x7f, 0xfa, 0x9f, 0x71,
  0xf6, 0x99, 0xb7, 0x76, 0xfe, 0xba, 0xb7, 0x25, 0xa0, 0x0c, 0xb3, 0xf5,
  0x45, 0xcd, 0x56, 0x4a, 0xa4, 0xaf, 0x81, 0xad, 0x99, 0x91, 0x05, 0x34,
  0x84, 0xbf, 0xb9, 0xaf, 0xc9, 0x37, 0x16, 0xca, 0x36, 0x3d, 0x43, 0xbb,
  0x8b, 0x6e, 0xd8, 0x18, 0x9f, 0x3f, 0x0a, 0x5f, 0x08, 0x9e, 0xdf, 0x7f,
  0xac, 0x2c, 0xb7, 0xe7, 0x58, 0x4e, 0xbc, 0xfc, 0xad, 0x6c, 0x0c, 0x40,
  0x09, 0x14, 0xc1, 0x6e, 0x64, 0x04, 0x5a, 0x39, 0x8c, 0xf2, 0x2a, 0x04,
  0x4b, 0xd0, 0x48, 0x81, 0xd0, 0xfa, 0x33, 0x34, 0xe1, 0x86, 0xd2, 0x4f,
  0xdd, 0x19, 0xa5, 0x95, 0xe9, 0x38, 0xd7, 0x84, 0x81, 0x5e, 0x51, 0x09,
  0x15, 0x4f, 0x2f, 0x5b, 0x33, 0x37, 0x28, 0x2d, 0xf0, 0xe0, 0x84, 0xd2,
  0x5e, 0xfe, 0x5d, 0x03, 0x19, 0xa8, 0x28, 0x52, 0x2b, 0xe0, 0x4a, 0x5a,
  0xb0, 0xd0, 0x81, 0x3d, 0x6f, 0xd1, 0xa1, 0x7f, 0xcb, 0xc9, 0x1f, 0x37,
  0x1b, 0x23, 0xeb, 0x0a, 0x09, 0xcf, 0xf9, 0x4f, 0xe7, 0x35, 0x49, 0x65,
  0xde, 0xdc, 0xbe, 0xcc, 0x17, 0x2f, 0xfc, 0x41, 0xdb, 0xc1, 0xbd, 0x66,
  0x07, 0x1b, 0xda, 0x7f, 0xa6, 0xcc, 0xb5, 0x0b, 0x34, 0xd2, 0x4a, 0xdf,
  0x9b, 0x99, 0xdb, 0xf7, 0xe0, 0xa3, 0xa8, 0x24, 0xc6, 0xf8, 0xb0, 0x38,
  0xd6, 0x28, 0xd7, 0x7f, 0xb4, 0x3e, 0xb8, 0x63, 0x61, 0x16, 0xe6, 0xec,
  0xce, 0x02, 0x04, 0x19, 0x7f, 0xbc, 0x0d, 0x52, 0xeb, 0x1c, 0xb0, 0x57,
  0xdd, 0xbf, 0xe9, 0x10, 0xb0, 0x29, 0xd5, 0x62, 0xcf, 0xe0, 0x3c, 0xcc,
  0x4a, 0xea, 0xcc, 0xcf, 0x91, 0x24, 0xa2, 0xb8, 0x41, 0x1f, 0x47, 0x03,
  0x0a, 0x81, 0xb0, 0x17, 0x31, 0xf7, 0x17, 0xde, 0x94, 0x52, 0xea, 0xbf,
  0x56, 0x2e, 0x01, 0xfd, 0x93, 0xd9, 0xdd, 0xaa, 0xfc, 0x1b, 0x7f, 0xf5,
  0x1e, 0xc3, 0xc9, 0x0c, 0x55, 0xfe, 0x66, 0xd6, 0xce, 0x41, 0xfd, 0x9f,
  0x08, 0x43, 0x7f, 0x0e, 0xcc, 0x11, 0x2d, 0x9b, 0x64, 0xa4, 0x37, 0x4a,
  0xef, 0xc3, 0xfd, 0x9c, 0x42, 0x38, 0xe7, 0xaf, 0xf0, 0xb7, 0x9e, 0x2d,
  0xdc, 0xcb, 0x35, 0xbf, 0xfa, 0xa2, 0xf5, 0x03, 0xa2, 0x81, 0x2e, 0x8c,
  0x90, 0xe8, 0x09, 0x23, 0x4e, 0xfb, 0xff, 0xff, 0x04, 0x00, 0x00, 0x00,
  0x40, 0x00, 0x00, 0x00, 0xcf, 0xf5, 0xff, 0xff, 0x30, 0xfd, 0xff, 0xff,
  0xfc, 0xf8, 0xff, 0xff, 0xc4, 0x01, 0x00, 0x00, 0x1a, 0xef, 0xff, 0xff,
  0xe0, 0x01, 0x00, 0x00, 0xad, 0x09, 0x00, 0x00, 0x18, 0xdd, 0xff, 0xff,
  0x26, 0xfd, 0xff, 0xff, 0xed, 0xff, 0xff, 0xff, 0x26, 0x00, 0x00, 0x00,
  0xc5, 0x12, 0x00, 0x00, 0x5c, 0xee, 0xff, 0xff, 0xf2, 0x09, 0x00, 0x00,
  0x98, 0xfd, 0xff, 0xff, 0x54, 0xe7, 0xff, 0xff, 0x9a, 0xfb, 0xff, 0xff,
  0x04, 0x00, 0x00, 0x00, 0x20, 0x03, 0x00, 0x00, 0x3a, 0xcf, 0x07, 0x00,
  0x3b, 0xb1, 0xf4, 0xd2, 0xe8, 0x09, 0xaa, 0xa3, 0xd5, 0x4b, 0x1f, 0x0e,
  0x49, 0xf0, 0x01, 0xcb, 0x1d, 0xfa, 0x0e, 0x0c, 0xc5, 0xe9, 0x02, 0xc6,
  0xf9, 0x41, 0x07, 0x2c, 0x08, 0x05, 0xf9, 0xc5, 0xdc, 0x96, 0x25, 0x1f,
  0xf1, 0x1b, 0xae, 0xec, 0xed, 0x5c, 0x29, 0xf4, 0x0a, 0xcb, 0x06, 0xa3,
  0x35, 0x9c, 0x44, 0xf8, 0xbd, 0xac, 0xfa, 0xdc, 0xdd, 0x20, 0x05, 0x1d,
  0x15, 0xc3, 0x01, 0xe1, 0xe4, 0xf3, 0xff, 0xfd, 0xf6, 0xd8, 0xec, 0x95,
  0x0a, 0x1d, 0x2b, 0xfd, 0x17, 0xd5, 0xca, 0xdd, 0xfa, 0xe8, 0x19, 0x19,
  0x06, 0xe4, 0xca, 0xc4, 0x20, 0x4b, 0x01, 0x1d, 0x35, 0x2a, 0x19, 0xd0,
  0x2b, 0xe8, 0xeb, 0xff, 0x01, 0xf2, 0xc5, 0xee, 0xd9, 0xfc, 0x2a, 0xc5,
  0xfb, 0xfd, 0xc7, 0x09, 0x13, 0xde, 0x05, 0xc5, 0xe7, 0xbd, 0xff, 0xd0,
  0x50, 0x2a, 0x64, 0xd0, 0x33, 0x08, 0xbc, 0xfd, 0xd6, 0xdf, 0x1d, 0xf0,
  0xc2, 0xef, 0xf2, 0xdc, 0x2e, 0x44, 0x1a, 0x15, 0x14, 0xd1, 0xd8, 0xf3,
  0x18, 0x14, 0xf8, 0x06, 0xd2, 0xcf, 0x03, 0xbd, 0x19, 0x4c, 0x17, 0xef,
  0xf6, 0xd3, 0xf2, 0xd5, 0xdd, 0xbb, 0x57, 0x29, 0xf1, 0xce, 0xd6, 0x04,
  0x2c, 0x4e, 0x43, 0xe1, 0x2f, 0xc3, 0x19, 0xdf, 0x32, 0xec, 0x29, 0x0a,
  0xf3, 0xa7, 0xb4, 0xa4, 0x0a, 0x59, 0x0e, 0xc0, 0x46, 0xdd, 0x00, 0xa4,
  0x07, 0xd5, 0x51, 0x0a, 0xe7, 0xd8, 0x02, 0xab, 0x1d, 0x09, 0x15, 0x2d,
  0xd9, 0xed, 0xec, 0x10, 0xd4, 0xe0, 0x2c, 0xf4, 0xdd, 0xeb, 0xfd, 0xc4,
  0x2c, 0x46, 0x4b, 0x0d, 0x1b, 0x14, 0x14, 0xa5, 0xf6, 0xc3, 0x25, 0xed,
  0x0a, 0xf2, 0x34, 0x81, 0xfe, 0x41, 0x11, 0x1f, 0x42, 0x00, 0x16, 0xbc,
  0x16, 0xde, 0x0d, 0xd6, 0xe3, 0xe5, 0xd0, 0xbb, 0x02, 0x55, 0x2b, 0xf9,
  0x09, 0x14, 0x17, 0xce, 0xf1, 0x18, 0xe8, 0xef, 0xc3, 0x07, 0xb7, 0xe1,
  0x2f, 0x2d, 0x42, 0xce, 0x33, 0xdd, 0x13, 0xd0, 0x04, 0xcc, 0x11, 0x0a,
  0xec, 0xb8, 0xaf, 0xfc, 0x09, 0x54, 0x34, 0x3a, 0x41, 0x0e, 0xc3, 0xc7,
  0x2a, 0xcc, 0x3b, 0x24, 0xd0, 0xf8, 0x30, 0x03, 0xea, 0x41, 0x22, 0x19,
  0x25, 0xf4, 0x19, 0xea, 0x19, 0xfa, 0x15, 0xdc, 0xfd, 0xc9, 0xaf, 0xb5,
  0x40, 0x36, 0x68, 0xd8, 0x0c, 0xaf, 0xec, 0xd7, 0x2b, 0xec, 0x4a, 0xf8,
  0xd1, 0xf5, 0xf9, 0xf8, 0x19, 0x38, 0x43, 0x30, 0xe2, 0xd9, 0xef, 0xdf,
  0x19, 0xf2, 0x34, 0xce, 0xec, 0x0c, 0xb6, 0xaa, 0x38, 0x5d, 0x3a, 0xe7,
  0x27, 0x14, 0x09, 0xd4, 0xdc, 0xc4, 0xfe, 0xe2, 0xf8, 0xee, 0x10, 0xad,
  0xbf, 0x4b, 0x4c, 0x04, 0x0b, 0xd1, 0xf2, 0xf7, 0xec, 0x22, 0xec, 0xdb,
  0x07, 0x15, 0x18, 0xee, 0x08, 0x19, 0x0c, 0xc3, 0x16, 0xa6, 0xcf, 0x0b,
  0x0b, 0xb3, 0xf3, 0x22, 0xc1, 0xf9, 0xe2, 0xeb, 0xca, 0x1f, 0x40, 0x14,
  0x08, 0x09, 0x10, 0x27, 0xd2, 0x2a, 0xc1, 0x16, 0xf1, 0x31, 0xf9, 0x16,
  0xf8, 0x14, 0xe5, 0x00, 0xdb, 0x00, 0x21, 0xdc, 0x2a, 0x11, 0xfb, 0x24,
  0x45, 0xe3, 0x27, 0x21, 0x1b, 0x05, 0xe3, 0x3a, 0x0c, 0x3a, 0x2d, 0xf6,
  0x04, 0x01, 0x10, 0x3b, 0xf7, 0x3f, 0x1a, 0x0e, 0xf4, 0xdf, 0xa3, 0xf9,
  0x28, 0x10, 0x10, 0x05, 0xe2, 0x5b, 0x0b, 0xd4, 0x26, 0xf5, 0x59, 0x50,
  0x0e, 0xb9, 0xb2, 0xce, 0xfa, 0x4d, 0x02, 0x28, 0x05, 0x1e, 0xc9, 0xfb,
  0x1f, 0x30, 0xe1, 0x2a, 0xc5, 0xd9, 0xdc, 0xf1, 0xca, 0x18, 0x1b, 0x2a,
  0x00, 0xed, 0x13, 0xe5, 0xe7, 0x26, 0x52, 0x52, 0xd3, 0x90, 0xac, 0xee,
  0x03, 0x0f, 0x34, 0x2a, 0x17, 0x24, 0x1b, 0x24, 0xdc, 0x44, 0xfc, 0x3a,
  0xef, 0xeb, 0xce, 0x10, 0xfa, 0x39, 0x24, 0x2f, 0x37, 0x15, 0xfc, 0xd1,
  0xee, 0xea, 0x07, 0x51, 0xe7, 0x98, 0xef, 0xf1, 0xb1, 0x12, 0x16, 0x27,
  0x32, 0x52, 0x19, 0xe9, 0x01, 0x1e, 0x07, 0x54, 0x14, 0xc5, 0xaf, 0x06,
  0xbb, 0xf9, 0x0d, 0x4a, 0x02, 0x3f, 0xbf, 0x28, 0x3f, 0xf0, 0x27, 0x2b,
  0xf0, 0xc5, 0xb4, 0xd9, 0xda, 0x20, 0xfc, 0x45, 0xf8, 0x17, 0xd6, 0x31,
  0xf4, 0x3d, 0xe6, 0x1e, 0xda, 0xa3, 0xef, 0x07, 0x18, 0x32, 0x32, 0x40,
  0xe9, 0x19, 0xca, 0xe2, 0xee, 0xf8, 0x34, 0x2a, 0xe6, 0xbc, 0x9d, 0xda,
  0xb8, 0x1c, 0x29, 0x16, 0x33, 0x13, 0xc1, 0xe0, 0x02, 0x0e, 0x1b, 0x10,
  0xeb, 0x9f, 0xc4, 0xd3, 0xfa, 0x2b, 0x3c, 0x40, 0xf1, 0x45, 0xa6, 0xfd,
  0xef, 0x30, 0xec, 0x4f, 0x16, 0xfa, 0xc3, 0xf3, 0xf0, 0x22, 0x03, 0x09,
  0xed, 0xee, 0x1b, 0xf6, 0x12, 0x06, 0xcf, 0x18, 0xfc, 0xd5, 0xc0, 0xfb,
  0xf8, 0xf9, 0x1f, 0x04, 0x37, 0x3b, 0x0b, 0x22, 0x21, 0x52, 0x2e, 0x1b,
  0xd5, 0xd1, 0xb4, 0xc4, 0xff, 0x13, 0x29, 0x1f, 0xbd, 0x37, 0xe3, 0x24,
  0x3a, 0x09, 0xfb, 0x54, 0x16, 0xf8, 0xd5, 0xe1, 0xe3, 0x32, 0x0c, 0x4e,
  0x07, 0x38, 0xe6, 0x0a, 0x0c, 0x31, 0xfe, 0x2e, 0x15, 0xb6, 0xd1, 0x15,
  0xde, 0x5a, 0x0f, 0x0c, 0x0f, 0x15, 0x1c, 0x1d, 0x31, 0x02, 0x34, 0x5d,
  0xf2, 0x0a, 0xd4, 0x14, 0xd1, 0x27, 0x07, 0xe3, 0xf3, 0x3a, 0xfb, 0xf3,
  0x25, 0xd8, 0x15, 0xf8, 0x31, 0xa3, 0xc7, 0xe0, 0x0a, 0xe2, 0x34, 0xef,
  0xfc, 0x30, 0xd2, 0xfc, 0x12, 0x1e, 0xf8, 0x2c, 0x1d, 0xc9, 0xcf, 0xeb,
  0xc0, 0x22, 0x33, 0x27, 0x2f, 0x1b, 0xe8, 0xf9, 0x09, 0x32, 0x1a, 0x0f,
  0x2f, 0xfa, 0x9c, 0x15, 0x14, 0x45, 0x24, 0x31, 0xf8, 0x2f, 0xe8, 0x08,
  0xfd, 0x39, 0x3c, 0x42, 0x04, 0xdd, 0xe4, 0xdf, 0xf5, 0x30, 0x45, 0x01,
  0xe4, 0x06, 0x1b, 0x31, 0x48, 0x41, 0x4d, 0x3e, 0xc3, 0xb2, 0xed, 0x1e,
  0x14, 0x27, 0x29, 0xe5, 0x3d, 0x45, 0xad, 0xda, 0x36, 0x0d, 0xf5, 0x56,
  0x12, 0xed, 0xfe, 0xe9, 0xc6, 0xfe, 0xff, 0xff, 0x04, 0x00, 0x00, 0x00,
  0x08, 0x00, 0x00, 0x00, 0xb4, 0xf8, 0xff, 0xff, 0x4c, 0x07, 0x00, 0x00,
  0xda, 0xfe, 0xff, 0xff, 0x04, 0x00, 0x00, 0x00, 0x08, 0x00, 0x00, 0x00,
  0xff, 0xff, 0xff, 0xff, 0x90, 0x01, 0x00, 0x00, 0xee, 0xfe, 0xff, 0xff,
  0x04, 0x00, 0x00, 0x00, 0x10, 0x00, 0x00, 0x00, 0x01, 0x00, 0x00, 0x00,
  0x32, 0x00, 0x00, 0x00, 0x01, 0x00, 0x00, 0x00, 0x10, 0x00, 0x00, 0x00,
  0x0a, 0xff, 0xff, 0xff, 0x04, 0x00, 0x00, 0x00, 0x10, 0x00, 0x00, 0x00,
  0x01, 0x00, 0x00, 0x00, 0x01, 0x00, 0x00, 0x00, 0x32, 0x00, 0x00, 0x00,
  0x08, 0x00, 0x00, 0x00, 0x26, 0xff, 0xff, 0xff, 0x04, 0x00, 0x00, 0x00,
  0x10, 0x00, 0x00, 0x00, 0x01, 0x00, 0x00, 0x00, 0x63, 0x00, 0x00, 0x00,
  0x01, 0x00, 0x00, 0x00, 0x08, 0x00, 0x00, 0x00, 0x42, 0xff, 0xff, 0xff,
  0x04, 0x00, 0x00, 0x00, 0x10, 0x00, 0x00, 0x00, 0x01, 0x00, 0x00, 0x00,
  0x01, 0x00, 0x00, 0x00, 0x63, 0x00, 0x00, 0x00, 0x14, 0x00, 0x00, 0x00,
  0x90, 0xf0, 0xff, 0xff, 0x94, 0xf0, 0xff, 0xff, 0x0f, 0x00, 0x00, 0x00,
  0x4d, 0x4c, 0x49, 0x52, 0x20, 0x43, 0x6f, 0x6e, 0x76, 0x65, 0x72, 0x74,
  0x65, 0x64, 0x2e, 0x00, 0x01, 0x00, 0x00, 0x00, 0x14, 0x00, 0x00, 0x00,
  0x00, 0x00, 0x0e, 0x00, 0x18, 0x00, 0x14, 0x00, 0x10, 0x00, 0x0c, 0x00,
  0x08, 0x00, 0x04, 0x00, 0x0e, 0x00, 0x00, 0x00, 0x14, 0x00, 0x00, 0x00,
  0x1c, 0x00, 0x00, 0x00, 0x84, 0x02, 0x00, 0x00, 0x88, 0x02, 0x00, 0x00,
  0x8c, 0x02, 0x00, 0x00, 0x04, 0x00, 0x00, 0x00, 0x6d, 0x61, 0x69, 0x6e,
  0x00, 0x00, 0x00, 0x00, 0x0b, 0x00, 0x00, 0x00, 0x48, 0x02, 0x00, 0x00,
  0xec, 0x01, 0x00, 0x00, 0xb8, 0x01, 0x00, 0x00, 0x68, 0x01, 0x00, 0x00,
  0x44, 0x01, 0x00, 0x00, 0x00, 0x01, 0x00, 0x00, 0xdc, 0x00, 0x00, 0x00,
  0x9c, 0x00, 0x00, 0x00, 0x78, 0x00, 0x00, 0x00, 0x40, 0x00, 0x00, 0x00,
  0x04, 0x00, 0x00, 0x00, 0x4a, 0xfe, 0xff, 0xff, 0x1c, 0x00, 0x00, 0x00,
  0x00, 0x00, 0x00, 0x09, 0x1c, 0x00, 0x00, 0x00, 0x20, 0x00, 0x00, 0x00,
  0x04, 0x00, 0x00, 0x00, 0x00, 0x00, 0x06, 0x00, 0x08, 0x00, 0x04, 0x00,
  0x06, 0x00, 0x00, 0x00, 0x00, 0x00, 0x80, 0x3f, 0x01, 0x00, 0x00, 0x00,
  0x16, 0x00, 0x00, 0x00, 0x01, 0x00, 0x00, 0x00, 0x15, 0x00, 0x00, 0x00,
  0x82, 0xfe, 0xff, 0xff, 0x14, 0x00, 0x00, 0x00, 0x00, 0x00, 0x00, 0x08,
  0x10, 0x00, 0x00, 0x00, 0x14, 0x00, 0x00, 0x00, 0x03, 0x00, 0x00, 0x00,
  0x68, 0xf1, 0xff, 0xff, 0x01, 0x00, 0x00, 0x00, 0x15, 0x00, 0x00, 0x00,
  0x03, 0x00, 0x00, 0x00, 0x14, 0x00, 0x00, 0x00, 0x07, 0x00, 0x00, 0x00,
  0x06, 0x00, 0x00, 0x00, 0x5a, 0xfe, 0xff, 0xff, 0x08, 0x00, 0x00, 0x00,
  0x0c, 0x00, 0x00, 0x00, 0x01, 0x00, 0x00, 0x00, 0x14, 0x00, 0x00, 0x00,
  0x02, 0x00, 0x00, 0x00, 0x13, 0x00, 0x00, 0x00, 0x05, 0x00, 0x00, 0x00,
  0xd6, 0xfe, 0xff, 0xff, 0x14, 0x00, 0x00, 0x00, 0x00, 0x00, 0x00, 0x05,
  0x20, 0x00, 0x00, 0x00, 0x24, 0x00, 0x00, 0x00, 0x02, 0x00, 0x00, 0x00,
  0x42, 0xff, 0xff, 0xff, 0x02, 0x00, 0x00, 0x00, 0x01, 0x00, 0x00, 0x00,
  0x02, 0x00, 0x00, 0x00, 0x01, 0x00, 0x00, 0x00, 0x01, 0x00, 0x00, 0x00,
  0x13, 0x00, 0x00, 0x00, 0x01, 0x00, 0x00, 0x00, 0x12, 0x00, 0x00, 0x00,
  0xb6, 0xfe, 0xff, 0xff, 0x08, 0x00, 0x00, 0x00, 0x0c, 0x00, 0x00, 0x00,
  0x01, 0x00, 0x00, 0x00, 0x12, 0x00, 0x00, 0x00, 0x02, 0x00, 0x00, 0x00,
  0x11, 0x00, 0x00, 0x00, 0x04, 0x00, 0x00, 0x00, 0x32, 0xff, 0xff, 0xff,
  0x14, 0x00, 0x00, 0x00, 0x00, 0x00, 0x00, 0x01, 0x1c, 0x00, 0x00, 0x00,
  0x20, 0x00, 0x00, 0x00, 0x01, 0x00, 0x00, 0x00, 0x24, 0xff, 0xff, 0xff,
  0x00, 0x00, 0x00, 0x01, 0x01, 0x00, 0x00, 0x00, 0x01, 0x00, 0x00, 0x00,
  0x01, 0x00, 0x00, 0x00, 0x11, 0x00, 0x00, 0x00, 0x03, 0x00, 0x00, 0x00,
  0x10, 0x00, 0x00, 0x00, 0x09, 0x00, 0x00, 0x00, 0x08, 0x00, 0x00, 0x00,
  0x16, 0xff, 0xff, 0xff, 0x08, 0x00, 0x00, 0x00, 0x0c, 0x00, 0x00, 0x00,
  0x01, 0x00, 0x00, 0x00, 0x10, 0x00, 0x00, 0x00, 0x02, 0x00, 0x00, 0x00,
  0x0f, 0x00, 0x00, 0x00, 0x03, 0x00, 0x00, 0x00, 0x92, 0xff, 0xff, 0xff,
  0x24, 0x00, 0x00, 0x00, 0x00, 0x00, 0x00, 0x05, 0x30, 0x00, 0x00, 0x00,
  0x34, 0x00, 0x00, 0x00, 0x02, 0x00, 0x00, 0x00, 0x00, 0x00, 0x0e, 0x00,
  0x14, 0x00, 0x00, 0x00, 0x10, 0x00, 0x0c, 0x00, 0x08, 0x00, 0x04, 0x00,
  0x0e, 0x00, 0x00, 0x00, 0x02, 0x00, 0x00, 0x00, 0x01, 0x00, 0x00, 0x00,
  0x02, 0x00, 0x00, 0x00, 0x01, 0x00, 0x00, 0x00, 0x01, 0x00, 0x00, 0x00,
  0x0f, 0x00, 0x00, 0x00, 0x01, 0x00, 0x00, 0x00, 0x0e, 0x00, 0x00, 0x00,
  0x82, 0xff, 0xff, 0xff, 0x08, 0x00, 0x00, 0x00, 0x0c, 0x00, 0x00, 0x00,
  0x01, 0x00, 0x00, 0x00, 0x0e, 0x00, 0x00, 0x00, 0x02, 0x00, 0x00, 0x00,
  0x0d, 0x00, 0x00, 0x00, 0x02, 0x00, 0x00, 0x00, 0x00, 0x00, 0x0e, 0x00,
  0x18, 0x00, 0x14, 0x00, 0x10, 0x00, 0x0c, 0x00, 0x0b, 0x00, 0x04, 0x00,
  0x0e, 0x00, 0x00, 0x00, 0x20, 0x00, 0x00, 0x00, 0x00, 0x00, 0x00, 0x01,
  0x28, 0x00, 0x00, 0x00, 0x2c, 0x00, 0x00, 0x00, 0x01, 0x00, 0x00, 0x00,
  0x0c, 0x00, 0x10, 0x00, 0x00, 0x00, 0x0c, 0x00, 0x08, 0x00, 0x07, 0x00,
  0x0c, 0x00, 0x00, 0x00, 0x00, 0x00, 0x00, 0x01, 0x01, 0x00, 0x00, 0x00,
  0x01, 0x00, 0x00, 0x00, 0x01, 0x00, 0x00, 0x00, 0x0d, 0x00, 0x00, 0x00,
  0x03, 0x00, 0x00, 0x00, 0x0c, 0x00, 0x00, 0x00, 0x0b, 0x00, 0x00, 0x00,
  0x0a, 0x00, 0x00, 0x00, 0x00, 0x00, 0x0a, 0x00, 0x0c, 0x00, 0x00, 0x00,
  0x08, 0x00, 0x04, 0x00, 0x0a, 0x00, 0x00, 0x00, 0x08, 0x00, 0x00, 0x00,
  0x0c, 0x00, 0x00, 0x00, 0x01, 0x00, 0x00, 0x00, 0x0c, 0x00, 0x00, 0x00,
  0x02, 0x00, 0x00, 0x00, 0x00, 0x00, 0x00, 0x00, 0x01, 0x00, 0x00, 0x00,
  0x01, 0x00, 0x00, 0x00, 0x16, 0x00, 0x00, 0x00, 0x01, 0x00, 0x00, 0x00,
  0x00, 0x00, 0x00, 0x00, 0x17, 0x00, 0x00, 0x00, 0xe8, 0x0c, 0x00, 0x00,
  0x78, 0x0c, 0x00, 0x00, 0x24, 0x0c, 0x00, 0x00, 0xcc, 0x0b, 0x00, 0x00,
  0x74, 0x0b, 0x00, 0x00, 0x28, 0x0b, 0x00, 0x00, 0xac, 0x0a, 0x00, 0x00,
  0x40, 0x0a, 0x00, 0x00, 0x14, 0x09, 0x00, 0x00, 0xe8, 0x07, 0x00, 0x00,
  0x1c, 0x07, 0x00, 0x00, 0x50, 0x06, 0x00, 0x00, 0xcc, 0x05, 0x00, 0x00,
  0xe0, 0x04, 0x00, 0x00, 0x5c, 0x04, 0x00, 0x00, 0xe0, 0x03, 0x00, 0x00,
  0x5c, 0x03, 0x00, 0x00, 0x60, 0x02, 0x00, 0x00, 0xdc, 0x01, 0x00, 0x00,
  0x60, 0x01, 0x00, 0x00, 0xf4, 0x00, 0x00, 0x00, 0x70, 0x00, 0x00, 0x00,
  0x04, 0x00, 0x00, 0x00, 0x8a, 0xf3, 0xff, 0xff, 0x00, 0x00, 0x00, 0x01,
  0x14, 0x00, 0x00, 0x00, 0x30, 0x00, 0x00, 0x00, 0x17, 0x00, 0x00, 0x00,
  0x00, 0x00, 0x00, 0x09, 0x44, 0x00, 0x00, 0x00, 0x74, 0xf3, 0xff, 0xff,
  0x08, 0x00, 0x00, 0x00, 0x10, 0x00, 0x00, 0x00, 0x01, 0x00, 0x00, 0x00,
  0x80, 0xff, 0xff, 0xff, 0xff, 0xff, 0xff, 0xff, 0x01, 0x00, 0x00, 0x00,
  0x00, 0x00, 0x80, 0x3b, 0x19, 0x00, 0x00, 0x00, 0x53, 0x74, 0x61, 0x74,
  0x65, 0x66, 0x75, 0x6c, 0x50, 0x61, 0x72, 0x74, 0x69, 0x74, 0x69, 0x6f,
  0x6e, 0x65, 0x64, 0x43, 0x61, 0x6c, 0x6c, 0x3a, 0x30, 0x00, 0x00, 0x00,
  0x02, 0x00, 0x00, 0x00, 0x01, 0x00, 0x00, 0x00, 0x02, 0x00, 0x00, 0x00,
  0xf2, 0xf3, 0xff, 0xff, 0x00, 0x00, 0x00, 0x01, 0x14, 0x00, 0x00, 0x00,
  0x30, 0x00, 0x00, 0x00, 0x16, 0x00, 0x00, 0x00, 0x00, 0x00, 0x00, 0x09,
  0x5c, 0x00, 0x00, 0x00, 0xdc, 0xf3, 0xff, 0xff, 0x08, 0x00, 0x00, 0x00,
  0x10, 0x00, 0x00, 0x00, 0x01, 0x00, 0x00, 0x00, 0xfd, 0xff, 0xff, 0xff,
  0xff, 0xff, 0xff, 0xff, 0x01, 0x00, 0x00, 0x00, 0xd6, 0xc4, 0x31, 0x3d,
  0x32, 0x00, 0x00, 0x00, 0x73, 0x65, 0x71, 0x75, 0x65, 0x6e, 0x74, 0x69,
  0x61, 0x6c, 0x2f, 0x79, 0x5f, 0x70, 0x72, 0x65, 0x64, 0x2f, 0x4d, 0x61,
  0x74, 0x4d, 0x75, 0x6c, 0x3b, 0x73, 0x65, 0x71, 0x75, 0x65, 0x6e, 0x74,
  0x69, 0x61, 0x6c, 0x2f, 0x79, 0x5f, 0x70, 0x72, 0x65, 0x64, 0x2f, 0x42,
  0x69, 0x61, 0x73, 0x41, 0x64, 0x64, 0x00, 0x00, 0x02, 0x00, 0x00, 0x00,
  0x01, 0x00, 0x00, 0x00, 0x02, 0x00, 0x00, 0x00, 0x72, 0xf4, 0xff, 0xff,
  0x00, 0x00, 0x00, 0x01, 0x14, 0x00, 0x00, 0x00, 0x30, 0x00, 0x00, 0x00,
  0x15, 0x00, 0x00, 0x00, 0x00, 0x00, 0x00, 0x09, 0x44, 0x00, 0x00, 0x00,
  0x5c, 0xf4, 0xff, 0xff, 0x08, 0x00, 0x00, 0x00, 0x10, 0x00, 0x00, 0x00,
  0x01, 0x00, 0x00, 0x00, 0x80, 0xff, 0xff, 0xff, 0xff, 0xff, 0xff, 0xff,
  0x01, 0x00, 0x00, 0x00, 0xa2, 0xd5, 0x95, 0x3b, 0x1a, 0x00, 0x00, 0x00,
  0x73, 0x65, 0x71, 0x75, 0x65, 0x6e, 0x74, 0x69, 0x61, 0x6c, 0x2f, 0x66,
  0x6c, 0x61, 0x74, 0x74, 0x65, 0x6e, 0x2f, 0x52, 0x65, 0x73, 0x68, 0x61,
  0x70, 0x65, 0x00, 0x00, 0x02, 0x00, 0x00, 0x00, 0x01, 0x00, 0x00, 0x00,
  0x90, 0x01, 0x00, 0x00, 0xda, 0xf4, 0xff, 0xff, 0x00, 0x00, 0x00, 0x01,
  0x14, 0x00, 0x00, 0x00, 0x30, 0x00, 0x00, 0x00, 0x14, 0x00, 0x00, 0x00,
  0x00, 0x00, 0x00, 0x09, 0x4c, 0x00, 0x00, 0x00, 0xc4, 0xf4, 0xff, 0xff,
  0x08, 0x00, 0x00, 0x00, 0x10, 0x00, 0x00, 0x00, 0x01, 0x00, 0x00, 0x00,
  0x80, 0xff, 0xff, 0xff, 0xff, 0xff, 0xff, 0xff, 0x01, 0x00, 0x00, 0x00,
  0xa2, 0xd5, 0x95, 0x3b, 0x22, 0x00, 0x00, 0x00, 0x73, 0x65, 0x71, 0x75,
  0x65, 0x6e, 0x74, 0x69, 0x61, 0x6c, 0x2f, 0x6d, 0x61, 0x78, 0x5f, 0x70,
  0x6f, 0x6f, 0x6c, 0x69, 0x6e, 0x67, 0x31, 0x64, 0x5f, 0x31, 0x2f, 0x4d,
  0x61, 0x78, 0x50, 0x6f, 0x6f, 0x6c, 0x00, 0x00, 0x04, 0x00, 0x00, 0x00,
  0x01, 0x00, 0x00, 0x00, 0x19, 0x00, 0x00, 0x00, 0x01, 0x00, 0x00, 0x00,
  0x10, 0x00, 0x00, 0x00, 0x52, 0xf5, 0xff, 0xff, 0x00, 0x00, 0x00, 0x01,
  0x14, 0x00, 0x00, 0x00, 0x34, 0x00, 0x00, 0x00, 0x13, 0x00, 0x00, 0x00,
  0x00, 0x00, 0x00, 0x09, 0x54, 0x00, 0x00, 0x00, 0x3c, 0xf5, 0xff, 0xff,
  0x08, 0x00, 0x00, 0x00, 0x14, 0x00, 0x00, 0x00, 0x01, 0x00, 0x00, 0x00,
  0x80, 0xff, 0xff, 0xff, 0xff, 0xff, 0xff, 0xff, 0x00, 0x00, 0x00, 0x00,
  0x01, 0x00, 0x00, 0x00, 0xa2, 0xd5, 0x95, 0x3b, 0x26, 0x00, 0x00, 0x00,
  0x73, 0x65, 0x71, 0x75, 0x65, 0x6e, 0x74, 0x69, 0x61, 0x6c, 0x2f, 0x6d,
  0x61, 0x78, 0x5f, 0x70, 0x6f, 0x6f, 0x6c, 0x69, 0x6e, 0x67, 0x31, 0x64,
  0x5f, 0x31, 0x2f, 0x45, 0x78, 0x70, 0x61, 0x6e, 0x64, 0x44, 0x69, 0x6d,
  0x73, 0x31, 0x00, 0x00, 0x04, 0x00, 0x00, 0x00, 0x01, 0x00, 0x00, 0x00,
  0x32, 0x00, 0x00, 0x00, 0x01, 0x00, 0x00, 0x00, 0x10, 0x00, 0x00, 0x00,
  0xd2, 0xf5, 0xff, 0xff, 0x00, 0x00, 0x00, 0x01, 0x14, 0x00, 0x00, 0x00,
  0x34, 0x00, 0x00, 0x00, 0x12, 0x00, 0x00, 0x00, 0x00, 0x00, 0x00, 0x09,
  0xcc, 0x00, 0x00, 0x00, 0xbc, 0xf5, 0xff, 0xff, 0x08, 0x00, 0x00, 0x00,
  0x14, 0x00, 0x00, 0x00, 0x01, 0x00, 0x00, 0x00, 0x80, 0xff, 0xff, 0xff,
  0xff, 0xff, 0xff, 0xff, 0x00, 0x00, 0x00, 0x00, 0x01, 0x00, 0x00, 0x00,
  0xa2, 0xd5, 0x95, 0x3b, 0x9d, 0x00, 0x00, 0x00, 0x73, 0x65, 0x71, 0x75,
  0x65, 0x6e, 0x74, 0x69, 0x61, 0x6c, 0x2f, 0x63, 0x6f, 0x6e, 0x76, 0x31,
  0x64, 0x5f, 0x31, 0x2f, 0x52, 0x65, 0x6c, 0x75, 0x3b, 0x73, 0x65, 0x71,
  0x75, 0x65, 0x6e, 0x74, 0x69, 0x61, 0x6c, 0x2f, 0x63, 0x6f, 0x6e, 0x76,
  0x31, 0x64, 0x5f, 0x31, 0x2f, 0x42, 0x69, 0x61, 0x73, 0x41, 0x64, 0x64,
  0x3b, 0x73, 0x65, 0x71, 0x75, 0x65, 0x6e, 0x74, 0x69, 0x61, 0x6c, 0x2f,
  0x63, 0x6f, 0x6e, 0x76, 0x31, 0x64, 0x5f, 0x31, 0x2f, 0x43, 0x6f, 0x6e,
  0x76, 0x31, 0x44, 0x2f, 0x53, 0x71, 0x75, 0x65, 0x65, 0x7a, 0x65, 0x3b,
  0x73, 0x65, 0x71, 0x75, 0x65, 0x6e, 0x74, 0x69, 0x61, 0x6c, 0x2f, 0x63,
  0x6f, 0x6e, 0x76, 0x31, 0x64, 0x5f, 0x31, 0x2f, 0x42, 0x69, 0x61, 0x73,
  0x41, 0x64, 0x64, 0x2f, 0x52, 0x65, 0x61, 0x64, 0x56, 0x61, 0x72, 0x69,
  0x61, 0x62, 0x6c, 0x65, 0x4f, 0x70, 0x3b, 0x73, 0x65, 0x71, 0x75, 0x65,
  0x6e, 0x74, 0x69, 0x61, 0x6c, 0x2f, 0x63, 0x6f, 0x6e, 0x76, 0x31, 0x64,
  0x5f, 0x31, 0x2f, 0x43, 0x6f, 0x6e, 0x76, 0x31, 0x44, 0x00, 0x00, 0x00,
  0x04, 0x00, 0x00, 0x00, 0x01, 0x00, 0x00, 0x00, 0x01, 0x00, 0x00, 0x00,
  0x32, 0x00, 0x00, 0x00, 0x10, 0x00, 0x00, 0x00, 0xca, 0xf6, 0xff, 0xff,
  0x00, 0x00, 0x00, 0x01, 0x14, 0x00, 0x00, 0x00, 0x34, 0x00, 0x00, 0x00,
  0x11, 0x00, 0x00, 0x00, 0x00, 0x00, 0x00, 0x09, 0x54, 0x00, 0x00, 0x00,
  0xb4, 0xf6, 0xff, 0xff, 0x08, 0x00, 0x00, 0x00, 0x14, 0x00, 0x00, 0x00,
  0x01, 0x00, 0x00, 0x00, 0x80, 0xff, 0xff, 0xff, 0xff, 0xff, 0xff, 0xff,
  0x00, 0x00, 0x00, 0x00, 0x01, 0x00, 0x00, 0x00, 0x07, 0xc3, 0xa5, 0x3b,
  0x26, 0x00, 0x00, 0x00, 0x73, 0x65, 0x71, 0x75, 0x65, 0x6e, 0x74, 0x69,
  0x61, 0x6c, 0x2f, 0x63, 0x6f, 0x6e, 0x76, 0x31, 0x64, 0x5f, 0x31, 0x2f,
  0x43, 0x6f, 0x6e, 0x76, 0x31, 0x44, 0x2f, 0x45, 0x78, 0x70, 0x61, 0x6e,
  0x64, 0x44, 0x69, 0x6d, 0x73, 0x31, 0x00, 0x00, 0x04, 0x00, 0x00, 0x00,
  0x01, 0x00, 0x00, 0x00, 0x01, 0x00, 0x00, 0x00, 0x32, 0x00, 0x00, 0x00,
  0x08, 0x00, 0x00, 0x00, 0x4a, 0xf7, 0xff, 0xff, 0x00, 0x00, 0x00, 0x01,
  0x14, 0x00, 0x00, 0x00, 0x30, 0x00, 0x00, 0x00, 0x10, 0x00, 0x00, 0x00,
  0x00, 0x00, 0x00, 0x09, 0x4c, 0x00, 0x00, 0x00, 0x34, 0xf7, 0xff, 0xff,
  0x08, 0x00, 0x00, 0x00, 0x10, 0x00, 0x00, 0x00, 0x01, 0x00, 0x00, 0x00,
  0x80, 0xff, 0xff, 0xff, 0xff, 0xff, 0xff, 0xff, 0x01, 0x00, 0x00, 0x00,
  0x07, 0xc3, 0xa5, 0x3b, 0x20, 0x00, 0x00, 0x00, 0x73, 0x65, 0x71, 0x75,
  0x65, 0x6e, 0x74, 0x69, 0x61, 0x6c, 0x2f, 0x6d, 0x61, 0x78, 0x5f, 0x70,
  0x6f, 0x6f, 0x6c, 0x69, 0x6e, 0x67, 0x31, 0x64, 0x2f, 0x4d, 0x61, 0x78,
  0x50, 0x6f, 0x6f, 0x6c, 0x00, 0x00, 0x00, 0x00, 0x04, 0x00, 0x00, 0x00,
  0x01, 0x00, 0x00, 0x00, 0x32, 0x00, 0x00, 0x00, 0x01, 0x00, 0x00, 0x00,
  0x08, 0x00, 0x00, 0x00, 0xc2, 0xf7, 0xff, 0xff, 0x00, 0x00, 0x00, 0x01,
  0x14, 0x00, 0x00, 0x00, 0x34, 0x00, 0x00, 0x00, 0x0f, 0x00, 0x00, 0x00,
  0x00, 0x00, 0x00, 0x09, 0x54, 0x00, 0x00, 0x00, 0xac, 0xf7, 0xff, 0xff,
  0x08, 0x00, 0x00, 0x00, 0x14, 0x00, 0x00, 0x00, 0x01, 0x00, 0x00, 0x00,
  0x80, 0xff, 0xff, 0xff, 0xff, 0xff, 0xff, 0xff, 0x00, 0x00, 0x00, 0x00,
  0x01, 0x00, 0x00, 0x00, 0x07, 0xc3, 0xa5, 0x3b, 0x24, 0x00, 0x00, 0x00,
  0x73, 0x65, 0x71, 0x75, 0x65, 0x6e, 0x74, 0x69, 0x61, 0x6c, 0x2f, 0x6d,
  0x61, 0x78, 0x5f, 0x70, 0x6f, 0x6f, 0x6c, 0x69, 0x6e, 0x67, 0x31, 0x64,
  0x2f, 0x45, 0x78, 0x70, 0x61, 0x6e, 0x64, 0x44, 0x69, 0x6d, 0x73, 0x31,
  0x00, 0x00, 0x00, 0x00, 0x04, 0x00, 0x00, 0x00, 0x01, 0x00, 0x00, 0x00,
  0x63, 0x00, 0x00, 0x00, 0x01, 0x00, 0x00, 0x00, 0x08, 0x00, 0x00, 0x00,
  0x42, 0xf8, 0xff, 0xff, 0x00, 0x00, 0x00, 0x01, 0x14, 0x00, 0x00, 0x00,
  0x30, 0x00, 0x00, 0x00, 0x0e, 0x00, 0x00, 0x00, 0x00, 0x00, 0x00, 0x09,
  0xbc, 0x00, 0x00, 0x00, 0x2c, 0xf8, 0xff, 0xff, 0x08, 0x00, 0x00, 0x00,
  0x10, 0x00, 0x00, 0x00, 0x01, 0x00, 0x00, 0x00, 0x80, 0xff, 0xff, 0xff,
  0xff, 0xff, 0xff, 0xff, 0x01, 0x00, 0x00, 0x00, 0x07, 0xc3, 0xa5, 0x3b,
  0x93, 0x00, 0x00, 0x00, 0x73, 0x65, 0x71, 0x75, 0x65, 0x6e, 0x74, 0x69,
  0x61, 0x6c, 0x2f, 0x63, 0x6f, 0x6e, 0x76, 0x31, 0x64, 0x2f, 0x52, 0x65,
  0x6c, 0x75, 0x3b, 0x73, 0x65, 0x71, 0x75, 0x65, 0x6e, 0x74, 0x69, 0x61,
  0x6c, 0x2f, 0x63, 0x6f, 0x6e, 0x76, 0x31, 0x64, 0x2f, 0x42, 0x69, 0x61,
  0x73, 0x41, 0x64, 0x64, 0x3b, 0x73, 0x65, 0x71, 0x75, 0x65, 0x6e, 0x74,
  0x69, 0x61, 0x6c, 0x2f, 0x63, 0x6f, 0x6e, 0x76, 0x31, 0x64, 0x2f, 0x43,
  0x6f, 0x6e, 0x76, 0x31, 0x44, 0x2f, 0x53, 0x71, 0x75, 0x65, 0x65, 0x7a,
  0x65, 0x3b, 0x73, 0x65, 0x71, 0x75, 0x65, 0x6e, 0x74, 0x69, 0x61, 0x6c,
  0x2f, 0x63, 0x6f, 0x6e, 0x76, 0x31, 0x64, 0x2f, 0x42, 0x69, 0x61, 0x73,
  0x41, 0x64, 0x64, 0x2f, 0x52, 0x65, 0x61, 0x64, 0x56, 0x61, 0x72, 0x69,
  0x61, 0x62, 0x6c, 0x65, 0x4f, 0x70, 0x3b, 0x73, 0x65, 0x71, 0x75, 0x65,
  0x6e, 0x74, 0x69, 0x61, 0x6c, 0x2f, 0x63, 0x6f, 0x6e, 0x76, 0x31, 0x64,
  0x2f, 0x43, 0x6f, 0x6e, 0x76, 0x31, 0x44, 0x00, 0x04, 0x00, 0x00, 0x00,
  0x01, 0x00, 0x00, 0x00, 0x01, 0x00, 0x00, 0x00, 0x63, 0x00, 0x00, 0x00,
  0x08, 0x00, 0x00, 0x00, 0x2a, 0xf9, 0xff, 0xff, 0x00, 0x00, 0x00, 0x01,
  0x14, 0x00, 0x00, 0x00, 0x34, 0x00, 0x00, 0x00, 0x0d, 0x00, 0x00, 0x00,
  0x00, 0x00, 0x00, 0x09, 0x54, 0x00, 0x00, 0x00, 0x14, 0xf9, 0xff, 0xff,
  0x08, 0x00, 0x00, 0x00, 0x14, 0x00, 0x00, 0x00, 0x01, 0x00, 0x00, 0x00,
  0x80, 0xff, 0xff, 0xff, 0xff, 0xff, 0xff, 0xff, 0x00, 0x00, 0x00, 0x00,
  0x01, 0x00, 0x00, 0x00, 0xaa, 0xa9, 0x29, 0x3b, 0x24, 0x00, 0x00, 0x00,
  0x73, 0x65, 0x71, 0x75, 0x65, 0x6e, 0x74, 0x69, 0x61, 0x6c, 0x2f, 0x63,
  0x6f, 0x6e, 0x76, 0x31, 0x64, 0x2f, 0x43, 0x6f, 0x6e, 0x76, 0x31, 0x44,
  0x2f, 0x45, 0x78, 0x70, 0x61, 0x6e, 0x64, 0x44, 0x69, 0x6d, 0x73, 0x31,
  0x00, 0x00, 0x00, 0x00, 0x04, 0x00, 0x00, 0x00, 0x01, 0x00, 0x00, 0x00,
  0x01, 0x00, 0x00, 0x00, 0x63, 0x00, 0x00, 0x00, 0x14, 0x00, 0x00, 0x00,
  0xaa, 0xf9, 0xff, 0xff, 0x00, 0x00, 0x00, 0x01, 0x14, 0x00, 0x00, 0x00,
  0x88, 0x00, 0x00, 0x00, 0x0c, 0x00, 0x00, 0x00, 0x00, 0x00, 0x00, 0x09,
  0x9c, 0x00, 0x00, 0x00, 0x94, 0xf9, 0xff, 0xff, 0x08, 0x00, 0x00, 0x00,
  0x4c, 0x00, 0x00, 0x00, 0x08, 0x00, 0x00, 0x00, 0x00, 0x00, 0x00, 0x00,
  0x00, 0x00, 0x00, 0x00, 0x00, 0x00, 0x00, 0x00, 0x00, 0x00, 0x00, 0x00,
  0x00, 0x00, 0x00, 0x00, 0x00, 0x00, 0x00, 0x00, 0x00, 0x00, 0x00, 0x00,
  0x00, 0x00, 0x00, 0x00, 0x00, 0x00, 0x00, 0x00, 0x00, 0x00, 0x00, 0x00,
  0x00, 0x00, 0x00, 0x00, 0x00, 0x00, 0x00, 0x00, 0x00, 0x00, 0x00, 0x00,
  0x00, 0x00, 0x00, 0x00, 0x00, 0x00, 0x00, 0x00, 0x00, 0x00, 0x00, 0x00,
  0x00, 0x00, 0x00, 0x00, 0x08, 0x00, 0x00, 0x00, 0xc5, 0xd6, 0x33, 0x3b,
  0xb9, 0xed, 0x0d, 0x3b, 0xe2, 0x33, 0x42, 0x3b, 0x7d, 0x48, 0x43, 0x3b,
  0x12, 0x27, 0x5c, 0x3b, 0x25, 0xd1, 0x02, 0x3b, 0x80, 0x99, 0x07, 0x3b,
  0xd6, 0xc6, 0x52, 0x3b, 0x18, 0x00, 0x00, 0x00, 0x73, 0x65, 0x71, 0x75,
  0x65, 0x6e, 0x74, 0x69, 0x61, 0x6c, 0x2f, 0x63, 0x6f, 0x6e, 0x76, 0x31,
  0x64, 0x2f, 0x43, 0x6f, 0x6e, 0x76, 0x31, 0x44, 0x00, 0x00, 0x00, 0x00,
  0x04, 0x00, 0x00, 0x00, 0x08, 0x00, 0x00, 0x00, 0x01, 0x00, 0x00, 0x00,
  0x03, 0x00, 0x00, 0x00, 0x14, 0x00, 0x00, 0x00, 0x72, 0xfa, 0xff, 0xff,
  0x00, 0x00, 0x00, 0x01, 0x14, 0x00, 0x00, 0x00, 0x84, 0x00, 0x00, 0x00,
  0x0b, 0x00, 0x00, 0x00, 0x00, 0x00, 0x00, 0x02, 0xa8, 0x00, 0x00, 0x00,
  0x5c, 0xfa, 0xff, 0xff, 0x08, 0x00, 0x00, 0x00, 0x48, 0x00, 0x00, 0x00,
  0x08, 0x00, 0x00, 0x00, 0x00, 0x00, 0x00, 0x00, 0x00, 0x00, 0x00, 0x00,
  0x00, 0x00, 0x00, 0x00, 0x00, 0x00, 0x00, 0x00, 0x00, 0x00, 0x00, 0x00,
  0x00, 0x00, 0x00, 0x00, 0x00, 0x00, 0x00, 0x00, 0x00, 0x00, 0x00, 0x00,
  0x00, 0x00, 0x00, 0x00, 0x00, 0x00, 0x00, 0x00, 0x00, 0x00, 0x00, 0x00,
  0x00, 0x00, 0x00, 0x00, 0x00, 0x00, 0x00, 0x00, 0x00, 0x00, 0x00, 0x00,
  0x00, 0x00, 0x00, 0x00, 0x00, 0x00, 0x00, 0x00, 0x08, 0x00, 0x00, 0x00,
  0xf1, 0x5f, 0xee, 0x36, 0xff, 0x1f, 0xbc, 0x36, 0xf5, 0xb4, 0x00, 0x37,
  0x47, 0x6c, 0x01, 0x37, 0xb3, 0xe7, 0x11, 0x37, 0x89, 0x65, 0xad, 0x36,
  0x68, 0xbc, 0xb3, 0x36, 0xf5, 0xb0, 0x0b, 0x37, 0x28, 0x00, 0x00, 0x00,
  0x73, 0x65, 0x71, 0x75, 0x65, 0x6e, 0x74, 0x69, 0x61, 0x6c, 0x2f, 0x63,
  0x6f, 0x6e, 0x76, 0x31, 0x64, 0x2f, 0x42, 0x69, 0x61, 0x73, 0x41, 0x64,
  0x64, 0x2f, 0x52, 0x65, 0x61, 0x64, 0x56, 0x61, 0x72, 0x69, 0x61, 0x62,
  0x6c, 0x65, 0x4f, 0x70, 0x00, 0x00, 0x00, 0x00, 0x01, 0x00, 0x00, 0x00,
  0x08, 0x00, 0x00, 0x00, 0x3a, 0xfb, 0xff, 0xff, 0x00, 0x00, 0x00, 0x01,
  0x14, 0x00, 0x00, 0x00, 0xe8, 0x00, 0x00, 0x00, 0x0a, 0x00, 0x00, 0x00,
  0x00, 0x00, 0x00, 0x09, 0xfc, 0x00, 0x00, 0x00, 0x24, 0xfb, 0xff, 0xff,
  0x08, 0x00, 0x00, 0x00, 0x8c, 0x00, 0x00, 0x00, 0x10, 0x00, 0x00, 0x00,
  0x00, 0x00, 0x00, 0x00, 0x00, 0x00, 0x00, 0x00, 0x00, 0x00, 0x00, 0x00,
  0x00, 0x00, 0x00, 0x00, 0x00, 0x00, 0x00, 0x00, 0x00, 0x00, 0x00, 0x00,
  0x00, 0x00, 0x00, 0x00, 0x00, 0x00, 0x00, 0x00, 0x00, 0x00, 0x00, 0x00,
  0x00, 0x00, 0x00, 0x00, 0x00, 0x00, 0x00, 0x00, 0x00, 0x00, 0x00, 0x00,
  0x00, 0x00, 0x00, 0x00, 0x00, 0x00, 0x00, 0x00, 0x00, 0x00, 0x00, 0x00,
  0x00, 0x00, 0x00, 0x00, 0x00, 0x00, 0x00, 0x00, 0x00, 0x00, 0x00, 0x00,
  0x00, 0x00, 0x00, 0x00, 0x00, 0x00, 0x00, 0x00, 0x00, 0x00, 0x00, 0x00,
  0x00, 0x00, 0x00, 0x00, 0x00, 0x00, 0x00, 0x00, 0x00, 0x00, 0x00, 0x00,
  0x00, 0x00, 0x00, 0x00, 0x00, 0x00, 0x00, 0x00, 0x00, 0x00, 0x00, 0x00,
  0x00, 0x00, 0x00, 0x00, 0x00, 0x00, 0x00, 0x00, 0x00, 0x00, 0x00, 0x00,
  0x00, 0x00, 0x00, 0x00, 0x00, 0x00, 0x00, 0x00, 0x00, 0x00, 0x00, 0x00,
  0x10, 0x00, 0x00, 0x00, 0x8c, 0x42, 0x27, 0x3b, 0x55, 0x79, 0x2a, 0x3b,
  0x55, 0xe2, 0x27, 0x3b, 0xee, 0x88, 0x0e, 0x3b, 0xf4, 0x9e, 0x0a, 0x3b,
  0x6c, 0x7c, 0x32, 0x3b, 0x9e, 0x7a, 0x0e, 0x3b, 0xd6, 0x30, 0x0e, 0x3b,
  0x3e, 0x1c, 0x2d, 0x3b, 0xcc, 0x72, 0x2d, 0x3b, 0x06, 0x21, 0x1f, 0x3b,
  0x0e, 0x66, 0x45, 0x3b, 0xbc, 0x79, 0x28, 0x3b, 0xb6, 0x70, 0x4f, 0x3b,
  0x60, 0x91, 0x3e, 0x3b, 0x9c, 0x7c, 0x09, 0x3b, 0x1a, 0x00, 0x00, 0x00,
  0x73, 0x65, 0x71, 0x75, 0x65, 0x6e, 0x74, 0x69, 0x61, 0x6c, 0x2f, 0x63,
  0x6f, 0x6e, 0x76, 0x31, 0x64, 0x5f, 0x31, 0x2f, 0x43, 0x6f, 0x6e, 0x76,
  0x31, 0x44, 0x00, 0x00, 0x04, 0x00, 0x00, 0x00, 0x10, 0x00, 0x00, 0x00,
  0x01, 0x00, 0x00, 0x00, 0x03, 0x00, 0x00, 0x00, 0x08, 0x00, 0x00, 0x00,
  0x62, 0xfc, 0xff, 0xff, 0x00, 0x00, 0x00, 0x01, 0x14, 0x00, 0x00, 0x00,
  0xe4, 0x00, 0x00, 0x00, 0x09, 0x00, 0x00, 0x00, 0x00, 0x00, 0x00, 0x02,
  0x08, 0x01, 0x00, 0x00, 0x4c, 0xfc, 0xff, 0xff, 0x08, 0x00, 0x00, 0x00,
  0x88, 0x00, 0x00, 0x00, 0x10, 0x00, 0x00, 0x00, 0x00, 0x00, 0x00, 0x00,
  0x00, 0x00, 0x00, 0x00, 0x00, 0x00, 0x00, 0x00, 0x00, 0x00, 0x00, 0x00,
  0x00, 0x00, 0x00, 0x00, 0x00, 0x00, 0x00, 0x00, 0x00, 0x00, 0x00, 0x00,
  0x00, 0x00, 0x00, 0x00, 0x00, 0x00, 0x00, 0x00, 0x00, 0x00, 0x00, 0x00,
  0x00, 0x00, 0x00, 0x00, 0x00, 0x00, 0x00, 0x00, 0x00, 0x00, 0x00, 0x00,
  0x00, 0x00, 0x00, 0x00, 0x00, 0x00, 0x00, 0x00, 0x00, 0x00, 0x00, 0x00,
  0x00, 0x00, 0x00, 0x00, 0x00, 0x00, 0x00, 0x00, 0x00, 0x00, 0x00, 0x00,
  0x00, 0x00, 0x00, 0x00, 0x00, 0x00, 0x00, 0x00, 0x00, 0x00, 0x00, 0x00,
  0x00, 0x00, 0x00, 0x00, 0x00, 0x00, 0x00, 0x00, 0x00, 0x00, 0x00, 0x00,
  0x00, 0x00, 0x00, 0x00, 0x00, 0x00, 0x00, 0x00, 0x00, 0x00, 0x00, 0x00,
  0x00, 0x00, 0x00, 0x00, 0x00, 0x00, 0x00, 0x00, 0x00, 0x00, 0x00, 0x00,
  0x00, 0x00, 0x00, 0x00, 0x10, 0x00, 0x00, 0x00, 0xa1, 0x9a, 0x58, 0x37,
  0x26, 0xc4, 0x5c, 0x37, 0x8e, 0x69, 0x59, 0x37, 0xaf, 0x95, 0x38, 0x37,
  0x1c, 0x84, 0x33, 0x37, 0x57, 0x24, 0x67, 0x37, 0x26, 0x83, 0x38, 0x37,
  0x9a, 0x23, 0x38, 0x37, 0x2a, 0x2e, 0x60, 0x37, 0x41, 0x9e, 0x60, 0x37,
  0x07, 0x13, 0x4e, 0x37, 0x52, 0xa2, 0x7f, 0x37, 0x9f, 0x2d, 0x5a, 0x37,
  0xae, 0x51, 0x86, 0x37, 0xc2, 0xc9, 0x76, 0x37, 0x1c, 0x0c, 0x32, 0x37,
  0x2a, 0x00, 0x00, 0x00, 0x73, 0x65, 0x71, 0x75, 0x65, 0x6e, 0x74, 0x69,
  0x61, 0x6c, 0x2f, 0x63, 0x6f, 0x6e, 0x76, 0x31, 0x64, 0x5f, 0x31, 0x2f,
  0x42, 0x69, 0x61, 0x73, 0x41, 0x64, 0x64, 0x2f, 0x52, 0x65, 0x61, 0x64,
  0x56, 0x61, 0x72, 0x69, 0x61, 0x62, 0x6c, 0x65, 0x4f, 0x70, 0x00, 0x00,
  0x01, 0x00, 0x00, 0x00, 0x10, 0x00, 0x00, 0x00, 0x8a, 0xfd, 0xff, 0xff,
  0x00, 0x00, 0x00, 0x01, 0x14, 0x00, 0x00, 0x00, 0x30, 0x00, 0x00, 0x00,
  0x08, 0x00, 0x00, 0x00, 0x00, 0x00, 0x00, 0x09, 0x44, 0x00, 0x00, 0x00,
  0x74, 0xfd, 0xff, 0xff, 0x08, 0x00, 0x00, 0x00, 0x10, 0x00, 0x00, 0x00,
  0x01, 0x00, 0x00, 0x00, 0x00, 0x00, 0x00, 0x00, 0x00, 0x00, 0x00, 0x00,
  0x01, 0x00, 0x00, 0x00, 0xab, 0xdf, 0x08, 0x3b, 0x18, 0x00, 0x00, 0x00,
  0x73, 0x65, 0x71, 0x75, 0x65, 0x6e, 0x74, 0x69, 0x61, 0x6c, 0x2f, 0x79,
  0x5f, 0x70, 0x72, 0x65, 0x64, 0x2f, 0x4d, 0x61, 0x74, 0x4d, 0x75, 0x6c,
  0x00, 0x00, 0x00, 0x00, 0x02, 0x00, 0x00, 0x00, 0x02, 0x00, 0x00, 0x00,
  0x90, 0x01, 0x00, 0x00, 0xf2, 0xfd, 0xff, 0xff, 0x00, 0x00, 0x00, 0x01,
  0x14, 0x00, 0x00, 0x00, 0x34, 0x00, 0x00, 0x00, 0x07, 0x00, 0x00, 0x00,
  0x00, 0x00, 0x00, 0x02, 0x58, 0x00, 0x00, 0x00, 0xdc, 0xfd, 0xff, 0xff,
  0x08, 0x00, 0x00, 0x00, 0x14, 0x00, 0x00, 0x00, 0x01, 0x00, 0x00, 0x00,
  0x00, 0x00, 0x00, 0x00, 0x00, 0x00, 0x00, 0x00, 0x00, 0x00, 0x00, 0x00,
  0x01, 0x00, 0x00, 0x00, 0xce, 0x38, 0x20, 0x37, 0x28, 0x00, 0x00, 0x00,
  0x73, 0x65, 0x71, 0x75, 0x65, 0x6e, 0x74, 0x69, 0x61, 0x6c, 0x2f, 0x79,
  0x5f, 0x70, 0x72, 0x65, 0x64, 0x2f, 0x42, 0x69, 0x61, 0x73, 0x41, 0x64,
  0x64, 0x2f, 0x52, 0x65, 0x61, 0x64, 0x56, 0x61, 0x72, 0x69, 0x61, 0x62,
  0x6c, 0x65, 0x4f, 0x70, 0x00, 0x00, 0x00, 0x00, 0x01, 0x00, 0x00, 0x00,
  0x02, 0x00, 0x00, 0x00, 0x6a, 0xfe, 0xff, 0xff, 0x00, 0x00, 0x00, 0x01,
  0x14, 0x00, 0x00, 0x00, 0x14, 0x00, 0x00, 0x00, 0x06, 0x00, 0x00, 0x00,
  0x00, 0x00, 0x00, 0x02, 0x28, 0x00, 0x00, 0x00, 0xc0, 0xfe, 0xff, 0xff,
  0x18, 0x00, 0x00, 0x00, 0x73, 0x65, 0x71, 0x75, 0x65, 0x6e, 0x74, 0x69,
  0x61, 0x6c, 0x2f, 0x66, 0x6c, 0x61, 0x74, 0x74, 0x65, 0x6e, 0x2f, 0x43,
  0x6f, 0x6e, 0x73, 0x74, 0x00, 0x00, 0x00, 0x00, 0x01, 0x00, 0x00, 0x00,
  0x02, 0x00, 0x00, 0x00, 0xb2, 0xfe, 0xff, 0xff, 0x00, 0x00, 0x00, 0x01,
  0x14, 0x00, 0x00, 0x00, 0x14, 0x00, 0x00, 0x00, 0x05, 0x00, 0x00, 0x00,
  0x00, 0x00, 0x00, 0x02, 0x34, 0x00, 0x00, 0x00, 0x08, 0xff, 0xff, 0xff,
  0x25, 0x00, 0x00, 0x00, 0x73, 0x65, 0x71, 0x75, 0x65, 0x6e, 0x74, 0x69,
  0x61, 0x6c, 0x2f, 0x6d, 0x61, 0x78, 0x5f, 0x70, 0x6f, 0x6f, 0x6c, 0x69,
  0x6e, 0x67, 0x31, 0x64, 0x5f, 0x31, 0x2f, 0x45, 0x78, 0x70, 0x61, 0x6e,
  0x64, 0x44, 0x69, 0x6d, 0x73, 0x00, 0x00, 0x00, 0x01, 0x00, 0x00, 0x00,
  0x04, 0x00, 0x00, 0x00, 0x06, 0xff, 0xff, 0xff, 0x00, 0x00, 0x00, 0x01,
  0x14, 0x00, 0x00, 0x00, 0x14, 0x00, 0x00, 0x00, 0x04, 0x00, 0x00, 0x00,
  0x00, 0x00, 0x00, 0x02, 0x34, 0x00, 0x00, 0x00, 0x5c, 0xff, 0xff, 0xff,
  0x25, 0x00, 0x00, 0x00, 0x73, 0x65, 0x71, 0x75, 0x65, 0x6e, 0x74, 0x69,
  0x61, 0x6c, 0x2f, 0x63, 0x6f, 0x6e, 0x76, 0x31, 0x64, 0x5f, 0x31, 0x2f,
  0x43, 0x6f, 0x6e, 0x76, 0x31, 0x44, 0x2f, 0x45, 0x78, 0x70, 0x61, 0x6e,
  0x64, 0x44, 0x69, 0x6d, 0x73, 0x00, 0x00, 0x00, 0x01, 0x00, 0x00, 0x00,
  0x04, 0x00, 0x00, 0x00, 0x5a, 0xff, 0xff, 0xff, 0x00, 0x00, 0x00, 0x01,
  0x14, 0x00, 0x00, 0x00, 0x14, 0x00, 0x00, 0x00, 0x03, 0x00, 0x00, 0x00,
  0x00, 0x00, 0x00, 0x02, 0x30, 0x00, 0x00, 0x00, 0xb0, 0xff, 0xff, 0xff,
  0x23, 0x00, 0x00, 0x00, 0x73, 0x65, 0x71, 0x75, 0x65, 0x6e, 0x74, 0x69,
  0x61, 0x6c, 0x2f, 0x6d, 0x61, 0x78, 0x5f, 0x70, 0x6f, 0x6f, 0x6c, 0x69,
  0x6e, 0x67, 0x31, 0x64, 0x2f, 0x45, 0x78, 0x70, 0x61, 0x6e, 0x64, 0x44,
  0x69, 0x6d, 0x73, 0x00, 0x01, 0x00, 0x00, 0x00, 0x04, 0x00, 0x00, 0x00,
  0xaa, 0xff, 0xff, 0xff, 0x00, 0x00, 0x00, 0x01, 0x18, 0x00, 0x00, 0x00,
  0x18, 0x00, 0x00, 0x00, 0x02, 0x00, 0x00, 0x00, 0x00, 0x00, 0x00, 0x02,
  0x34, 0x00, 0x00, 0x00, 0x04, 0x00, 0x04, 0x00, 0x04, 0x00, 0x00, 0x00,
  0x23, 0x00, 0x00, 0x00, 0x73, 0x65, 0x71, 0x75, 0x65, 0x6e, 0x74, 0x69,
  0x61, 0x6c, 0x2f, 0x63, 0x6f, 0x6e, 0x76, 0x31, 0x64, 0x2f, 0x43, 0x6f,
  0x6e, 0x76, 0x31, 0x44, 0x2f, 0x45, 0x78, 0x70, 0x61, 0x6e, 0x64, 0x44,
  0x69, 0x6d, 0x73, 0x00, 0x01, 0x00, 0x00, 0x00, 0x04, 0x00, 0x00, 0x00,
  0x00, 0x00, 0x16, 0x00, 0x1c, 0x00, 0x18, 0x00, 0x17, 0x00, 0x10, 0x00,
  0x0c, 0x00, 0x08, 0x00, 0x00, 0x00, 0x00, 0x00, 0x00, 0x00, 0x07, 0x00,
  0x16, 0x00, 0x00, 0x00, 0x00, 0x00, 0x00, 0x01, 0x20, 0x00, 0x00, 0x00,
  0x3c, 0x00, 0x00, 0x00, 0x01, 0x00, 0x00, 0x00, 0x00, 0x00, 0x00, 0x09,
  0x48, 0x00, 0x00, 0x00, 0x0c, 0x00, 0x0c, 0x00, 0x00, 0x00, 0x00, 0x00,
  0x08, 0x00, 0x04, 0x00, 0x0c, 0x00, 0x00, 0x00, 0x08, 0x00, 0x00, 0x00,
  0x10, 0x00, 0x00, 0x00, 0x01, 0x00, 0x00, 0x00, 0x80, 0xff, 0xff, 0xff,
  0xff, 0xff, 0xff, 0xff, 0x01, 0x00, 0x00, 0x00, 0xaa, 0xa9, 0x29, 0x3b,
  0x13, 0x00, 0x00, 0x00, 0x73, 0x65, 0x72, 0x76, 0x69, 0x6e, 0x67, 0x5f,
  0x64, 0x65, 0x66, 0x61, 0x75, 0x6c, 0x74, 0x5f, 0x78, 0x3a, 0x30, 0x00,
  0x02, 0x00, 0x00, 0x00, 0x01, 0x00, 0x00, 0x00, 0xbc, 0x07, 0x00, 0x00,
  0x05, 0x00, 0x00, 0x00, 0x6c, 0x00, 0x00, 0x00, 0x4c, 0x00, 0x00, 0x00,
  0x2c, 0x00, 0x00, 0x00, 0x18, 0x00, 0x00, 0x00, 0x04, 0x00, 0x00, 0x00,
  0xd0, 0xff, 0xff, 0xff, 0x19, 0x00, 0x00, 0x00, 0x02, 0x00, 0x00, 0x00,
  0x00, 0x00, 0x00, 0x19, 0xe0, 0xff, 0xff, 0xff, 0x09, 0x00, 0x00, 0x00,
  0x04, 0x00, 0x00, 0x00, 0x00, 0x00, 0x00, 0x09, 0xf0, 0xff, 0xff, 0xff,
  0x11, 0x00, 0x00, 0x00, 0x02, 0x00, 0x00, 0x00, 0x00, 0x00, 0x00, 0x11,
  0x0c, 0x00, 0x10, 0x00, 0x0f, 0x00, 0x00, 0x00, 0x08, 0x00, 0x04, 0x00,
  0x0c, 0x00, 0x00, 0x00, 0x03, 0x00, 0x00, 0x00, 0x03, 0x00, 0x00, 0x00,
  0x00, 0x00, 0x00, 0x03, 0x0c, 0x00, 0x0c, 0x00, 0x0b, 0x00, 0x00, 0x00,
  0x00, 0x00, 0x04, 0x00, 0x0c, 0x00, 0x00, 0x00, 0x16, 0x00, 0x00, 0x00,
  0x00, 0x00, 0x00, 0x16
};
unsigned int tflite_learn_831114_6_len = 6784;
#endif // _EI_CLASSIFIER_TFLITE_LEARN_831114_6_H_
